custom_quantize_layers:
    /model.0/conv/Conv_output_0: float16
    /model.0/act/Mul_output_0: float16
    /model.1/conv/Conv_output_0: float16
    /model.1/act/Mul_output_0: float16
    /model.2/cv1/conv/Conv_output_0: float16
    /model.2/cv1/act/Mul_output_0: float16
    /model.2/Split_output_0: float16
    /model.2/Concat_output_0: float16
    /model.2/Split_output_1: float16
    /model.2/m.0/cv1/conv/Conv_output_0: float16
    /model.2/m.0/Add_output_0: float16
    /model.2/m.0/cv1/act/Mul_output_0: float16
    /model.2/m.0/cv2/conv/Conv_output_0: float16
    /model.2/m.0/cv2/act/Mul_output_0: float16
    /model.2/cv2/conv/Conv_output_0: float16
    /model.2/cv2/act/Mul_output_0: float16
    /model.3/conv/Conv_output_0: float16
    /model.3/act/Mul_output_0: float16
    /model.4/cv1/conv/Conv_output_0: float16
    /model.4/Split_output_0: float16
    /model.4/Concat_output_0: float16
    /model.4/m.1/cv2/act/Mul_output_0: float16
    /model.4/m.1/Add_output_0: float16
    /model.6/Split_output_0: float16
    /model.6/Concat_output_0: float16
    /model.6/m.1/cv2/act/Mul_output_0: float16
    /model.6/m.1/Add_output_0: float16
    /model.8/Split_output_0: float16
    /model.8/Concat_output_0: float16
    /model.8/m.0/cv2/act/Mul_output_0: float16
    /model.8/m.0/Add_output_0: float16
    /model.8/cv2/conv/Conv_output_0: float16
    /model.15/m.0/cv2/act/Mul_output_0: float16
    /model.15/Concat_output_0: float16
    /model.15/cv2/conv/Conv_output_0: float16
    /model.18/m.0/cv2/act/Mul_output_0: float16
    /model.18/Concat_output_0: float16
    /model.21/m.0/cv2/act/Mul_output_0: float16
    /model.21/Concat_output_0: float16
    /model.22/cv4.2/cv4.2.0/act/Mul_output_0: float16
    /model.22/cv4.2/cv4.2.1/conv/Conv_output_0: float16
    /model.22/cv4.2/cv4.2.1/act/Mul_output_0: float16
    /model.22/cv4.2/cv4.2.2/Conv_output_0: float16
    /model.22/Reshape_2_output_0_shape4_/model.22/Concat: float16
    /model.22/Concat_output_0: float16
    /model.22/cv2.2/cv2.2.0/act/Mul_output_0: float16
    /model.22/cv2.2/cv2.2.1/conv/Conv_output_0: float16
    /model.22/cv2.2/cv2.2.1/act/Mul_output_0: float16
    /model.22/cv2.2/cv2.2.2/Conv_output_0: float16
    /model.22/cv3.2/cv3.2.0/act/Mul_output_0: float16
    /model.22/cv3.2/cv3.2.1/conv/Conv_output_0: float16
    /model.22/cv3.2/cv3.2.1/act/Mul_output_0: float16
    /model.22/cv3.2/cv3.2.2/Conv_output_0: float16
    /model.22/cv4.1/cv4.1.1/act/Mul_output_0: float16
    /model.22/cv4.1/cv4.1.2/Conv_output_0: float16
    /model.22/cv2.1/cv2.1.1/act/Mul_output_0: float16
    /model.22/cv2.1/cv2.1.2/Conv_output_0: float16
    /model.22/cv3.1/cv3.1.1/act/Mul_output_0: float16
    /model.22/cv3.1/cv3.1.2/Conv_output_0: float16
    output1: float16
    /model.22/cv4.0/cv4.0.1/act/Mul_output_0: float16
    /model.22/cv4.0/cv4.0.2/Conv_output_0: float16
    /model.22/cv2.0/cv2.0.1/act/Mul_output_0: float16
    /model.22/cv2.0/cv2.0.2/Conv_output_0: float16
    /model.22/cv3.0/cv3.0.1/act/Mul_output_0: float16
    /model.22/cv3.0/cv3.0.2/Conv_output_0: float16
    /model.22/dfl/Softmax_new: float16
    /model.22/dfl/conv/Conv_output_0: float16
    /model.22/Concat_5_output_0_shape4: float16
    /model.22/Mul_2_output_0_before: float16
    /model.22/Sigmoid_output_0: float16
    output0_shape4_before_reshape_before_conv: float16
    output0_shape4_before_reshape: float16
    output0_int8: float16
    output0: float16
    /model.22/cv2.1/cv2.1.1/conv/Conv_output_0: float16
quantize_parameters:
    images:
        qtype: asymmetric_quantized
        qmethod: layer
        dtype: float32
        min:
        -   0.0
        max:
        -   1.0
        scale: []
        zero_point: []
        ori_min:
        -   0.0
        ori_max:
        -   1.0
    /model.0/conv/Conv_output_0:
        qtype: asymmetric_quantized
        qmethod: layer
        dtype: int8
        min:
        -   -30.843082427978516
        max:
        -   29.524734497070312
        scale:
        -   0.2367365369609758
        zero_point:
        -   2
        ori_min:
        -   -30.843082427978516
        ori_max:
        -   29.524734497070312
    /model.0/act/Mul_output_0:
        qtype: asymmetric_quantized
        qmethod: layer
        dtype: int8
        min:
        -   -0.27846455574035645
        max:
        -   29.524734497070312
        scale:
        -   0.1168752904031791
        zero_point:
        -   -126
        ori_min:
        -   -0.27846455574035645
        ori_max:
        -   29.524734497070312
    /model.1/conv/Conv_output_0:
        qtype: asymmetric_quantized
        qmethod: layer
        dtype: int8
        min:
        -   -98.20014190673828
        max:
        -   88.78241729736328
        scale:
        -   0.7332649380553002
        zero_point:
        -   6
        ori_min:
        -   -98.20014190673828
        ori_max:
        -   88.78241729736328
    /model.1/act/Mul_output_0:
        qtype: asymmetric_quantized
        qmethod: layer
        dtype: int8
        min:
        -   -0.27846458554267883
        max:
        -   88.78241729736328
        scale:
        -   0.3492583603251214
        zero_point:
        -   -127
        ori_min:
        -   -0.27846458554267883
        ori_max:
        -   88.78241729736328
    /model.2/cv1/conv/Conv_output_0:
        qtype: asymmetric_quantized
        qmethod: layer
        dtype: int8
        min:
        -   -100.04484558105469
        max:
        -   33.3461799621582
        scale:
        -   0.5231020609537761
        zero_point:
        -   63
        ori_min:
        -   -100.04484558105469
        ori_max:
        -   33.3461799621582
    /model.2/cv1/act/Mul_output_0:
        qtype: asymmetric_quantized
        qmethod: layer
        dtype: int8
        min:
        -   -0.27846458554267883
        max:
        -   33.3461799621582
        scale:
        -   0.13186135116745443
        zero_point:
        -   -126
        ori_min:
        -   -0.27846458554267883
        ori_max:
        -   33.3461799621582
    /model.2/Split_output_0:
        qtype: asymmetric_quantized
        qmethod: layer
        dtype: int8
        min:
        -   -0.27846458554267883
        max:
        -   33.3461799621582
        scale:
        -   0.13186135116745443
        zero_point:
        -   -126
        ori_min:
        -   -0.27846458554267883
        ori_max:
        -   33.3461799621582
    /model.2/Split_output_1:
        qtype: asymmetric_quantized
        qmethod: layer
        dtype: int8
        min:
        -   -0.27846455574035645
        max:
        -   15.914922714233398
        scale:
        -   0.06350347949009316
        zero_point:
        -   -124
        ori_min:
        -   -0.27846455574035645
        ori_max:
        -   15.914922714233398
    /model.2/m.0/cv1/conv/Conv_output_0:
        qtype: asymmetric_quantized
        qmethod: layer
        dtype: int8
        min:
        -   -21.212255477905273
        max:
        -   24.399145126342773
        scale:
        -   0.17886823766371784
        zero_point:
        -   -9
        ori_min:
        -   -21.212255477905273
        ori_max:
        -   24.399145126342773
    /model.2/m.0/cv1/act/Mul_output_0:
        qtype: asymmetric_quantized
        qmethod: layer
        dtype: int8
        min:
        -   -0.27846455574035645
        max:
        -   24.399145126342773
        scale:
        -   0.09677493992973776
        zero_point:
        -   -125
        ori_min:
        -   -0.27846455574035645
        ori_max:
        -   24.399145126342773
    /model.2/m.0/cv2/conv/Conv_output_0:
        qtype: asymmetric_quantized
        qmethod: layer
        dtype: int8
        min:
        -   -25.148096084594727
        max:
        -   24.09098243713379
        scale:
        -   0.19309442557540593
        zero_point:
        -   2
        ori_min:
        -   -25.148096084594727
        ori_max:
        -   24.09098243713379
    /model.2/m.0/cv2/act/Mul_output_0:
        qtype: asymmetric_quantized
        qmethod: layer
        dtype: int8
        min:
        -   -0.27846455574035645
        max:
        -   24.09098243713379
        scale:
        -   0.09556645879558488
        zero_point:
        -   -125
        ori_min:
        -   -0.27846455574035645
        ori_max:
        -   24.09098243713379
    /model.2/m.0/Add_output_0:
        qtype: asymmetric_quantized
        qmethod: layer
        dtype: int8
        min:
        -   -0.5569265484809875
        max:
        -   29.37781524658203
        scale:
        -   0.11739114429436479
        zero_point:
        -   -123
        ori_min:
        -   -0.5569265484809875
        ori_max:
        -   29.37781524658203
    /model.2/Concat_output_0:
        qtype: asymmetric_quantized
        qmethod: layer
        dtype: int8
        min:
        -   -0.5569265484809875
        max:
        -   33.3461799621582
        scale:
        -   0.13295335886525173
        zero_point:
        -   -124
        ori_min:
        -   -0.5569265484809875
        ori_max:
        -   33.3461799621582
    /model.2/cv2/conv/Conv_output_0:
        qtype: asymmetric_quantized
        qmethod: layer
        dtype: int8
        min:
        -   -24.279399871826172
        max:
        -   14.349892616271973
        scale:
        -   0.15148742152195352
        zero_point:
        -   32
        ori_min:
        -   -24.279399871826172
        ori_max:
        -   14.349892616271973
    /model.2/cv2/act/Mul_output_0:
        qtype: asymmetric_quantized
        qmethod: layer
        dtype: int8
        min:
        -   -0.27846455574035645
        max:
        -   14.349884033203125
        scale:
        -   0.057366072897817574
        zero_point:
        -   -123
        ori_min:
        -   -0.27846455574035645
        ori_max:
        -   14.349884033203125
    /model.3/conv/Conv_output_0:
        qtype: asymmetric_quantized
        qmethod: layer
        dtype: int8
        min:
        -   -11.10323715209961
        max:
        -   6.833378314971924
        scale:
        -   0.07033966849831974
        zero_point:
        -   30
        ori_min:
        -   -11.10323715209961
        ori_max:
        -   6.833378314971924
    /model.3/act/Mul_output_0:
        qtype: asymmetric_quantized
        qmethod: layer
        dtype: int8
        min:
        -   -0.27846455574035645
        max:
        -   6.826025485992432
        scale:
        -   0.02786074526169721
        zero_point:
        -   -118
        ori_min:
        -   -0.27846455574035645
        ori_max:
        -   6.826025485992432
    /model.4/cv1/conv/Conv_output_0:
        qtype: asymmetric_quantized
        qmethod: layer
        dtype: int8
        min:
        -   -8.743399620056152
        max:
        -   6.158373832702637
        scale:
        -   0.05843832726572074
        zero_point:
        -   22
        ori_min:
        -   -8.743399620056152
        ori_max:
        -   6.158373832702637
    /model.4/cv1/act/Mul_output_0:
        qtype: asymmetric_quantized
        qmethod: layer
        dtype: int8
        min:
        -   -0.27846455574035645
        max:
        -   6.145371913909912
        scale:
        -   0.025191515567255955
        zero_point:
        -   -117
        ori_min:
        -   -0.27846455574035645
        ori_max:
        -   6.145371913909912
    /model.4/Split_output_0:
        qtype: asymmetric_quantized
        qmethod: layer
        dtype: int8
        min:
        -   -0.27846455574035645
        max:
        -   6.145371913909912
        scale:
        -   0.025191515567255955
        zero_point:
        -   -117
        ori_min:
        -   -0.27846455574035645
        ori_max:
        -   6.145371913909912
    /model.4/Split_output_1:
        qtype: asymmetric_quantized
        qmethod: layer
        dtype: int8
        min:
        -   -0.27846452593803406
        max:
        -   3.672199010848999
        scale:
        -   0.01549279818347856
        zero_point:
        -   -110
        ori_min:
        -   -0.27846452593803406
        ori_max:
        -   3.672199010848999
    /model.4/m.0/cv1/conv/Conv_output_0:
        qtype: asymmetric_quantized
        qmethod: layer
        dtype: int8
        min:
        -   -6.468908786773682
        max:
        -   5.322153568267822
        scale:
        -   0.046239460215849036
        zero_point:
        -   12
        ori_min:
        -   -6.468908786773682
        ori_max:
        -   5.322153568267822
    /model.4/m.0/cv1/act/Mul_output_0:
        qtype: asymmetric_quantized
        qmethod: layer
        dtype: int8
        min:
        -   -0.27846455574035645
        max:
        -   5.296296119689941
        scale:
        -   0.021861806570314894
        zero_point:
        -   -115
        ori_min:
        -   -0.27846455574035645
        ori_max:
        -   5.296296119689941
    /model.4/m.0/cv2/conv/Conv_output_0:
        qtype: asymmetric_quantized
        qmethod: layer
        dtype: int8
        min:
        -   -5.965265274047852
        max:
        -   6.17228889465332
        scale:
        -   0.04759825164196538
        zero_point:
        -   -3
        ori_min:
        -   -5.965265274047852
        ori_max:
        -   6.17228889465332
    /model.4/m.0/cv2/act/Mul_output_0:
        qtype: asymmetric_quantized
        qmethod: layer
        dtype: int8
        min:
        -   -0.27846455574035645
        max:
        -   6.159437656402588
        scale:
        -   0.025246675341737038
        zero_point:
        -   -117
        ori_min:
        -   -0.27846455574035645
        ori_max:
        -   6.159437656402588
    /model.4/m.0/Add_output_0:
        qtype: asymmetric_quantized
        qmethod: layer
        dtype: int8
        min:
        -   -0.5569216012954712
        max:
        -   5.930783271789551
        scale:
        -   0.025441979894451065
        zero_point:
        -   -106
        ori_min:
        -   -0.5569216012954712
        ori_max:
        -   5.930783271789551
    /model.4/m.1/cv1/conv/Conv_output_0:
        qtype: asymmetric_quantized
        qmethod: layer
        dtype: int8
        min:
        -   -5.7340617179870605
        max:
        -   3.156710624694824
        scale:
        -   0.034865773892870135
        zero_point:
        -   36
        ori_min:
        -   -5.7340617179870605
        ori_max:
        -   3.156710624694824
    /model.4/m.1/cv1/act/Mul_output_0:
        qtype: asymmetric_quantized
        qmethod: layer
        dtype: int8
        min:
        -   -0.27846455574035645
        max:
        -   3.027829170227051
        scale:
        -   0.012965857748891793
        zero_point:
        -   -107
        ori_min:
        -   -0.27846455574035645
        ori_max:
        -   3.027829170227051
    /model.4/m.1/cv2/conv/Conv_output_0:
        qtype: asymmetric_quantized
        qmethod: layer
        dtype: int8
        min:
        -   -7.881839275360107
        max:
        -   7.062412261962891
        scale:
        -   0.05860490798950195
        zero_point:
        -   6
        ori_min:
        -   -7.881839275360107
        ori_max:
        -   7.062412261962891
    /model.4/m.1/cv2/act/Mul_output_0:
        qtype: asymmetric_quantized
        qmethod: layer
        dtype: int8
        min:
        -   -0.27846455574035645
        max:
        -   7.056366443634033
        scale:
        -   0.028764043134801527
        zero_point:
        -   -118
        ori_min:
        -   -0.27846455574035645
        ori_max:
        -   7.056366443634033
    /model.4/m.1/Add_output_0:
        qtype: asymmetric_quantized
        qmethod: layer
        dtype: int8
        min:
        -   -0.8326888680458069
        max:
        -   7.812779426574707
        scale:
        -   0.03390379723380594
        zero_point:
        -   -103
        ori_min:
        -   -0.8326888680458069
        ori_max:
        -   7.812779426574707
    /model.4/Concat_output_0:
        qtype: asymmetric_quantized
        qmethod: layer
        dtype: int8
        min:
        -   -0.8326888680458069
        max:
        -   7.812779426574707
        scale:
        -   0.03390379723380594
        zero_point:
        -   -103
        ori_min:
        -   -0.8326888680458069
        ori_max:
        -   7.812779426574707
    /model.4/cv2/conv/Conv_output_0:
        qtype: asymmetric_quantized
        qmethod: layer
        dtype: int8
        min:
        -   -7.976639747619629
        max:
        -   6.9286675453186035
        scale:
        -   0.05845218546250287
        zero_point:
        -   8
        ori_min:
        -   -7.976639747619629
        ori_max:
        -   6.9286675453186035
    /model.4/cv2/act/Mul_output_0:
        qtype: asymmetric_quantized
        qmethod: layer
        dtype: int8
        min:
        -   -0.27846455574035645
        max:
        -   6.921888828277588
        scale:
        -   0.028236679937325274
        zero_point:
        -   -118
        ori_min:
        -   -0.27846455574035645
        ori_max:
        -   6.921888828277588
    /model.5/conv/Conv_output_0:
        qtype: asymmetric_quantized
        qmethod: layer
        dtype: int8
        min:
        -   -8.772842407226562
        max:
        -   4.575212478637695
        scale:
        -   0.05234531327789905
        zero_point:
        -   40
        ori_min:
        -   -8.772842407226562
        ori_max:
        -   4.575212478637695
    /model.5/act/Mul_output_0:
        qtype: asymmetric_quantized
        qmethod: layer
        dtype: int8
        min:
        -   -0.27846455574035645
        max:
        -   4.528549671173096
        scale:
        -   0.018851036183974323
        zero_point:
        -   -113
        ori_min:
        -   -0.27846455574035645
        ori_max:
        -   4.528549671173096
    /model.6/cv1/conv/Conv_output_0:
        qtype: asymmetric_quantized
        qmethod: layer
        dtype: int8
        min:
        -   -9.409703254699707
        max:
        -   5.694801330566406
        scale:
        -   0.05923335131476907
        zero_point:
        -   31
        ori_min:
        -   -9.409703254699707
        ori_max:
        -   5.694801330566406
    /model.6/cv1/act/Mul_output_0:
        qtype: asymmetric_quantized
        qmethod: layer
        dtype: int8
        min:
        -   -0.27846455574035645
        max:
        -   5.675711631774902
        scale:
        -   0.023349710539275526
        zero_point:
        -   -116
        ori_min:
        -   -0.27846455574035645
        ori_max:
        -   5.675711631774902
    /model.6/Split_output_0:
        qtype: asymmetric_quantized
        qmethod: layer
        dtype: int8
        min:
        -   -0.27846455574035645
        max:
        -   5.675711631774902
        scale:
        -   0.023349710539275526
        zero_point:
        -   -116
        ori_min:
        -   -0.27846455574035645
        ori_max:
        -   5.675711631774902
    /model.6/Split_output_1:
        qtype: asymmetric_quantized
        qmethod: layer
        dtype: int8
        min:
        -   -0.27846455574035645
        max:
        -   3.0545244216918945
        scale:
        -   0.01307054500953824
        zero_point:
        -   -107
        ori_min:
        -   -0.27846455574035645
        ori_max:
        -   3.0545244216918945
    /model.6/m.0/cv1/conv/Conv_output_0:
        qtype: asymmetric_quantized
        qmethod: layer
        dtype: int8
        min:
        -   -6.947774410247803
        max:
        -   5.8720879554748535
        scale:
        -   0.05027397006165748
        zero_point:
        -   10
        ori_min:
        -   -6.947774410247803
        ori_max:
        -   5.8720879554748535
    /model.6/m.0/cv1/act/Mul_output_0:
        qtype: asymmetric_quantized
        qmethod: layer
        dtype: int8
        min:
        -   -0.27846455574035645
        max:
        -   5.855592727661133
        scale:
        -   0.024055126601574467
        zero_point:
        -   -116
        ori_min:
        -   -0.27846455574035645
        ori_max:
        -   5.855592727661133
    /model.6/m.0/cv2/conv/Conv_output_0:
        qtype: asymmetric_quantized
        qmethod: layer
        dtype: int8
        min:
        -   -8.411605834960938
        max:
        -   7.673244476318359
        scale:
        -   0.06307784435795803
        zero_point:
        -   5
        ori_min:
        -   -8.411605834960938
        ori_max:
        -   7.673244476318359
    /model.6/m.0/cv2/act/Mul_output_0:
        qtype: asymmetric_quantized
        qmethod: layer
        dtype: int8
        min:
        -   -0.27846455574035645
        max:
        -   7.669677257537842
        scale:
        -   0.031169183581483132
        zero_point:
        -   -119
        ori_min:
        -   -0.27846455574035645
        ori_max:
        -   7.669677257537842
    /model.6/m.0/Add_output_0:
        qtype: asymmetric_quantized
        qmethod: layer
        dtype: int8
        min:
        -   -0.5568994283676147
        max:
        -   7.423074245452881
        scale:
        -   0.0312940144071392
        zero_point:
        -   -110
        ori_min:
        -   -0.5568994283676147
        ori_max:
        -   7.423074245452881
    /model.6/m.1/cv1/conv/Conv_output_0:
        qtype: asymmetric_quantized
        qmethod: layer
        dtype: int8
        min:
        -   -6.88630485534668
        max:
        -   6.1172099113464355
        scale:
        -   0.05099417555565928
        zero_point:
        -   7
        ori_min:
        -   -6.88630485534668
        ori_max:
        -   6.1172099113464355
    /model.6/m.1/cv1/act/Mul_output_0:
        qtype: asymmetric_quantized
        qmethod: layer
        dtype: int8
        min:
        -   -0.27846455574035645
        max:
        -   6.103753089904785
        scale:
        -   0.025028304492726045
        zero_point:
        -   -117
        ori_min:
        -   -0.27846455574035645
        ori_max:
        -   6.103753089904785
    /model.6/m.1/cv2/conv/Conv_output_0:
        qtype: asymmetric_quantized
        qmethod: layer
        dtype: int8
        min:
        -   -9.5248384475708
        max:
        -   7.919552326202393
        scale:
        -   0.06840937558342429
        zero_point:
        -   11
        ori_min:
        -   -9.5248384475708
        ori_max:
        -   7.919552326202393
    /model.6/m.1/cv2/act/Mul_output_0:
        qtype: asymmetric_quantized
        qmethod: layer
        dtype: int8
        min:
        -   -0.27846455574035645
        max:
        -   7.91667366027832
        scale:
        -   0.03213779692556344
        zero_point:
        -   -119
        ori_min:
        -   -0.27846455574035645
        ori_max:
        -   7.91667366027832
    /model.6/m.1/Add_output_0:
        qtype: asymmetric_quantized
        qmethod: layer
        dtype: int8
        min:
        -   -0.8334084749221802
        max:
        -   9.987768173217773
        scale:
        -   0.042435986855450795
        zero_point:
        -   -108
        ori_min:
        -   -0.8334084749221802
        ori_max:
        -   9.987768173217773
    /model.6/Concat_output_0:
        qtype: asymmetric_quantized
        qmethod: layer
        dtype: int8
        min:
        -   -0.8334084749221802
        max:
        -   9.987768173217773
        scale:
        -   0.042435986855450795
        zero_point:
        -   -108
        ori_min:
        -   -0.8334084749221802
        ori_max:
        -   9.987768173217773
    /model.6/cv2/conv/Conv_output_0:
        qtype: asymmetric_quantized
        qmethod: layer
        dtype: int8
        min:
        -   -7.549758434295654
        max:
        -   5.820745468139648
        scale:
        -   0.052433348637001186
        zero_point:
        -   16
        ori_min:
        -   -7.549758434295654
        ori_max:
        -   5.820745468139648
    /model.6/cv2/act/Mul_output_0:
        qtype: asymmetric_quantized
        qmethod: layer
        dtype: int8
        min:
        -   -0.27846455574035645
        max:
        -   5.803535461425781
        scale:
        -   0.02385098045947505
        zero_point:
        -   -116
        ori_min:
        -   -0.27846455574035645
        ori_max:
        -   5.803535461425781
    /model.7/conv/Conv_output_0:
        qtype: asymmetric_quantized
        qmethod: layer
        dtype: int8
        min:
        -   -6.696700572967529
        max:
        -   6.395158290863037
        scale:
        -   0.05134062299541398
        zero_point:
        -   2
        ori_min:
        -   -6.696700572967529
        ori_max:
        -   6.395158290863037
    /model.7/act/Mul_output_0:
        qtype: asymmetric_quantized
        qmethod: layer
        dtype: int8
        min:
        -   -0.27846455574035645
        max:
        -   6.384498596191406
        scale:
        -   0.0261292672624775
        zero_point:
        -   -117
        ori_min:
        -   -0.27846455574035645
        ori_max:
        -   6.384498596191406
    /model.8/cv1/conv/Conv_output_0:
        qtype: asymmetric_quantized
        qmethod: layer
        dtype: int8
        min:
        -   -8.827953338623047
        max:
        -   7.905549049377441
        scale:
        -   0.06562157799215877
        zero_point:
        -   7
        ori_min:
        -   -8.827953338623047
        ori_max:
        -   7.905549049377441
    /model.8/cv1/act/Mul_output_0:
        qtype: asymmetric_quantized
        qmethod: layer
        dtype: int8
        min:
        -   -0.27846455574035645
        max:
        -   7.902635097503662
        scale:
        -   0.032082743738211836
        zero_point:
        -   -119
        ori_min:
        -   -0.27846455574035645
        ori_max:
        -   7.902635097503662
    /model.8/Split_output_0:
        qtype: asymmetric_quantized
        qmethod: layer
        dtype: int8
        min:
        -   -0.27846455574035645
        max:
        -   7.902635097503662
        scale:
        -   0.032082743738211836
        zero_point:
        -   -119
        ori_min:
        -   -0.27846455574035645
        ori_max:
        -   7.902635097503662
    /model.8/Split_output_1:
        qtype: asymmetric_quantized
        qmethod: layer
        dtype: int8
        min:
        -   -0.27846455574035645
        max:
        -   5.481544017791748
        scale:
        -   0.022588268915812174
        zero_point:
        -   -116
        ori_min:
        -   -0.27846455574035645
        ori_max:
        -   5.481544017791748
    /model.8/m.0/cv1/conv/Conv_output_0:
        qtype: asymmetric_quantized
        qmethod: layer
        dtype: int8
        min:
        -   -7.740657806396484
        max:
        -   9.585993766784668
        scale:
        -   0.06794765322816138
        zero_point:
        -   -14
        ori_min:
        -   -7.740657806396484
        ori_max:
        -   9.585993766784668
    /model.8/m.0/cv1/act/Mul_output_0:
        qtype: asymmetric_quantized
        qmethod: layer
        dtype: int8
        min:
        -   -0.27846455574035645
        max:
        -   9.585335731506348
        scale:
        -   0.03868156975390864
        zero_point:
        -   -121
        ori_min:
        -   -0.27846455574035645
        ori_max:
        -   9.585335731506348
    /model.8/m.0/cv2/conv/Conv_output_0:
        qtype: asymmetric_quantized
        qmethod: layer
        dtype: int8
        min:
        -   -10.1968412399292
        max:
        -   11.31867790222168
        scale:
        -   0.08437458487117992
        zero_point:
        -   -7
        ori_min:
        -   -10.1968412399292
        ori_max:
        -   11.31867790222168
    /model.8/m.0/cv2/act/Mul_output_0:
        qtype: asymmetric_quantized
        qmethod: layer
        dtype: int8
        min:
        -   -0.27846455574035645
        max:
        -   11.318540573120117
        scale:
        -   0.04547845148572735
        zero_point:
        -   -122
        ori_min:
        -   -0.27846455574035645
        ori_max:
        -   11.318540573120117
    /model.8/m.0/Add_output_0:
        qtype: asymmetric_quantized
        qmethod: layer
        dtype: int8
        min:
        -   -0.5569256544113159
        max:
        -   12.402645111083984
        scale:
        -   0.050821846139197255
        zero_point:
        -   -117
        ori_min:
        -   -0.5569256544113159
        ori_max:
        -   12.402645111083984
    /model.8/Concat_output_0:
        qtype: asymmetric_quantized
        qmethod: layer
        dtype: int8
        min:
        -   -0.5569256544113159
        max:
        -   12.402645111083984
        scale:
        -   0.050821846139197255
        zero_point:
        -   -117
        ori_min:
        -   -0.5569256544113159
        ori_max:
        -   12.402645111083984
    /model.8/cv2/conv/Conv_output_0:
        qtype: asymmetric_quantized
        qmethod: layer
        dtype: int8
        min:
        -   -9.74946117401123
        max:
        -   5.626062393188477
        scale:
        -   0.06029617085176356
        zero_point:
        -   34
        ori_min:
        -   -9.74946117401123
        ori_max:
        -   5.626062393188477
    /model.8/cv2/act/Mul_output_0:
        qtype: asymmetric_quantized
        qmethod: layer
        dtype: int8
        min:
        -   -0.27846455574035645
        max:
        -   5.605865955352783
        scale:
        -   0.02307580592585545
        zero_point:
        -   -116
        ori_min:
        -   -0.27846455574035645
        ori_max:
        -   5.605865955352783
    /model.9/cv1/conv/Conv_output_0:
        qtype: asymmetric_quantized
        qmethod: layer
        dtype: int8
        min:
        -   -3.8663978576660156
        max:
        -   5.544568061828613
        scale:
        -   0.0369057487039005
        zero_point:
        -   -23
        ori_min:
        -   -3.8663978576660156
        ori_max:
        -   5.544568061828613
    /model.9/cv1/act/Mul_output_0:
        qtype: asymmetric_quantized
        qmethod: layer
        dtype: int8
        min:
        -   -0.27846449613571167
        max:
        -   5.522980690002441
        scale:
        -   0.022750765435835894
        zero_point:
        -   -116
        ori_min:
        -   -0.27846449613571167
        ori_max:
        -   5.522980690002441
    /model.9/m/MaxPool_output_0:
        qtype: asymmetric_quantized
        qmethod: layer
        dtype: int8
        min:
        -   -0.27846449613571167
        max:
        -   5.522980690002441
        scale:
        -   0.022750765435835894
        zero_point:
        -   -116
        ori_min:
        -   -0.18012738227844238
        ori_max:
        -   5.522980690002441
    /model.9/m_1/MaxPool_output_0:
        qtype: asymmetric_quantized
        qmethod: layer
        dtype: int8
        min:
        -   -0.27846449613571167
        max:
        -   5.522980690002441
        scale:
        -   0.022750765435835894
        zero_point:
        -   -116
        ori_min:
        -   -0.08699322491884232
        ori_max:
        -   5.522980690002441
    /model.9/m_2/MaxPool_output_0:
        qtype: asymmetric_quantized
        qmethod: layer
        dtype: int8
        min:
        -   -0.27846449613571167
        max:
        -   5.522980690002441
        scale:
        -   0.022750765435835894
        zero_point:
        -   -116
        ori_min:
        -   0.1360611468553543
        ori_max:
        -   5.522980690002441
    /model.9/Concat_output_0:
        qtype: asymmetric_quantized
        qmethod: layer
        dtype: int8
        min:
        -   -0.27846449613571167
        max:
        -   5.522980690002441
        scale:
        -   0.022750765435835894
        zero_point:
        -   -116
        ori_min:
        -   -0.27846449613571167
        ori_max:
        -   5.522980690002441
    /model.9/cv2/conv/Conv_output_0:
        qtype: asymmetric_quantized
        qmethod: layer
        dtype: int8
        min:
        -   -7.39239501953125
        max:
        -   4.033555030822754
        scale:
        -   0.04480764725629021
        zero_point:
        -   37
        ori_min:
        -   -7.39239501953125
        ori_max:
        -   4.033555030822754
    /model.9/cv2/act/Mul_output_0:
        qtype: asymmetric_quantized
        qmethod: layer
        dtype: int8
        min:
        -   -0.27846455574035645
        max:
        -   3.9633588790893555
        scale:
        -   0.016634601705214556
        zero_point:
        -   -111
        ori_min:
        -   -0.27846455574035645
        ori_max:
        -   3.9633588790893555
    /model.10/Resize_output_0:
        qtype: asymmetric_quantized
        qmethod: layer
        dtype: int8
        min:
        -   -0.27846455574035645
        max:
        -   3.9633588790893555
        scale:
        -   0.016634601705214556
        zero_point:
        -   -111
        ori_min:
        -   -0.27846455574035645
        ori_max:
        -   3.9633588790893555
    /model.11/Concat_output_0:
        qtype: asymmetric_quantized
        qmethod: layer
        dtype: int8
        min:
        -   -0.27846455574035645
        max:
        -   5.803535461425781
        scale:
        -   0.02385098045947505
        zero_point:
        -   -116
        ori_min:
        -   -0.27846455574035645
        ori_max:
        -   5.803535461425781
    /model.12/cv1/conv/Conv_output_0:
        qtype: asymmetric_quantized
        qmethod: layer
        dtype: int8
        min:
        -   -7.428109645843506
        max:
        -   5.297067642211914
        scale:
        -   0.04990265603158988
        zero_point:
        -   21
        ori_min:
        -   -7.428109645843506
        ori_max:
        -   5.297067642211914
    /model.12/cv1/act/Mul_output_0:
        qtype: asymmetric_quantized
        qmethod: layer
        dtype: int8
        min:
        -   -0.27846455574035645
        max:
        -   5.270681381225586
        scale:
        -   0.021761356615552715
        zero_point:
        -   -115
        ori_min:
        -   -0.27846455574035645
        ori_max:
        -   5.270681381225586
    /model.12/Split_output_0:
        qtype: asymmetric_quantized
        qmethod: layer
        dtype: int8
        min:
        -   -0.27846455574035645
        max:
        -   4.337863922119141
        scale:
        -   0.01810324893278234
        zero_point:
        -   -113
        ori_min:
        -   -0.27846455574035645
        ori_max:
        -   4.337863922119141
    /model.12/Split_output_1:
        qtype: asymmetric_quantized
        qmethod: layer
        dtype: int8
        min:
        -   -0.27846455574035645
        max:
        -   5.270681381225586
        scale:
        -   0.021761356615552715
        zero_point:
        -   -115
        ori_min:
        -   -0.27846455574035645
        ori_max:
        -   5.270681381225586
    /model.12/m.0/cv1/conv/Conv_output_0:
        qtype: asymmetric_quantized
        qmethod: layer
        dtype: int8
        min:
        -   -6.529452323913574
        max:
        -   4.079456329345703
        scale:
        -   0.041603563346114814
        zero_point:
        -   29
        ori_min:
        -   -6.529452323913574
        ori_max:
        -   4.079456329345703
    /model.12/m.0/cv1/act/Mul_output_0:
        qtype: asymmetric_quantized
        qmethod: layer
        dtype: int8
        min:
        -   -0.27846455574035645
        max:
        -   4.011593818664551
        scale:
        -   0.016823758330999635
        zero_point:
        -   -111
        ori_min:
        -   -0.27846455574035645
        ori_max:
        -   4.011593818664551
    /model.12/m.0/cv2/conv/Conv_output_0:
        qtype: asymmetric_quantized
        qmethod: layer
        dtype: int8
        min:
        -   -7.165628433227539
        max:
        -   6.547961235046387
        scale:
        -   0.05377878301283893
        zero_point:
        -   5
        ori_min:
        -   -7.165628433227539
        ori_max:
        -   6.547961235046387
    /model.12/m.0/cv2/act/Mul_output_0:
        qtype: asymmetric_quantized
        qmethod: layer
        dtype: int8
        min:
        -   -0.27846455574035645
        max:
        -   6.538591384887695
        scale:
        -   0.0267335527083453
        zero_point:
        -   -118
        ori_min:
        -   -0.27846455574035645
        ori_max:
        -   6.538591384887695
    /model.12/Concat_output_0:
        qtype: asymmetric_quantized
        qmethod: layer
        dtype: int8
        min:
        -   -0.27846455574035645
        max:
        -   6.538591384887695
        scale:
        -   0.0267335527083453
        zero_point:
        -   -118
        ori_min:
        -   -0.27846455574035645
        ori_max:
        -   6.538591384887695
    /model.12/cv2/conv/Conv_output_0:
        qtype: asymmetric_quantized
        qmethod: layer
        dtype: int8
        min:
        -   -7.262801647186279
        max:
        -   4.015190601348877
        scale:
        -   0.04422742058249081
        zero_point:
        -   36
        ori_min:
        -   -7.262801647186279
        ori_max:
        -   4.015190601348877
    /model.12/cv2/act/Mul_output_0:
        qtype: asymmetric_quantized
        qmethod: layer
        dtype: int8
        min:
        -   -0.27846458554267883
        max:
        -   3.944042205810547
        scale:
        -   0.016558850162169514
        zero_point:
        -   -111
        ori_min:
        -   -0.27846458554267883
        ori_max:
        -   3.944042205810547
    /model.13/Resize_output_0:
        qtype: asymmetric_quantized
        qmethod: layer
        dtype: int8
        min:
        -   -0.27846458554267883
        max:
        -   3.944042205810547
        scale:
        -   0.016558850162169514
        zero_point:
        -   -111
        ori_min:
        -   -0.27846458554267883
        ori_max:
        -   3.944042205810547
    /model.14/Concat_output_0:
        qtype: asymmetric_quantized
        qmethod: layer
        dtype: int8
        min:
        -   -0.27846458554267883
        max:
        -   6.921888828277588
        scale:
        -   0.028236680054197126
        zero_point:
        -   -118
        ori_min:
        -   -0.27846458554267883
        ori_max:
        -   6.921888828277588
    /model.15/cv1/conv/Conv_output_0:
        qtype: asymmetric_quantized
        qmethod: layer
        dtype: int8
        min:
        -   -5.362171649932861
        max:
        -   3.804166793823242
        scale:
        -   0.03594642526963178
        zero_point:
        -   21
        ori_min:
        -   -5.362171649932861
        ori_max:
        -   3.804166793823242
    /model.15/cv1/act/Mul_output_0:
        qtype: asymmetric_quantized
        qmethod: layer
        dtype: int8
        min:
        -   -0.27846455574035645
        max:
        -   3.7212655544281006
        scale:
        -   0.015685216118307675
        zero_point:
        -   -110
        ori_min:
        -   -0.27846455574035645
        ori_max:
        -   3.7212655544281006
    /model.15/Split_output_0:
        qtype: asymmetric_quantized
        qmethod: layer
        dtype: int8
        min:
        -   -0.27846455574035645
        max:
        -   3.7212655544281006
        scale:
        -   0.015685216118307675
        zero_point:
        -   -110
        ori_min:
        -   -0.27846455574035645
        ori_max:
        -   3.7212655544281006
    /model.15/Split_output_1:
        qtype: asymmetric_quantized
        qmethod: layer
        dtype: int8
        min:
        -   -0.27846455574035645
        max:
        -   2.918026924133301
        scale:
        -   0.01253526070538689
        zero_point:
        -   -106
        ori_min:
        -   -0.27846455574035645
        ori_max:
        -   2.918026924133301
    /model.15/m.0/cv1/conv/Conv_output_0:
        qtype: asymmetric_quantized
        qmethod: layer
        dtype: int8
        min:
        -   -6.77206563949585
        max:
        -   3.926365852355957
        scale:
        -   0.041954633301379635
        zero_point:
        -   33
        ori_min:
        -   -6.77206563949585
        ori_max:
        -   3.926365852355957
    /model.15/m.0/cv1/act/Mul_output_0:
        qtype: asymmetric_quantized
        qmethod: layer
        dtype: int8
        min:
        -   -0.27846458554267883
        max:
        -   3.8504533767700195
        scale:
        -   0.01619183514632431
        zero_point:
        -   -111
        ori_min:
        -   -0.27846458554267883
        ori_max:
        -   3.8504533767700195
    /model.15/m.0/cv2/conv/Conv_output_0:
        qtype: asymmetric_quantized
        qmethod: layer
        dtype: int8
        min:
        -   -5.474255561828613
        max:
        -   5.882034778594971
        scale:
        -   0.04453447192322974
        zero_point:
        -   -5
        ori_min:
        -   -5.474255561828613
        ori_max:
        -   5.882034778594971
    /model.15/m.0/cv2/act/Mul_output_0:
        qtype: asymmetric_quantized
        qmethod: layer
        dtype: int8
        min:
        -   -0.27846455574035645
        max:
        -   5.8656744956970215
        scale:
        -   0.024094662946813245
        zero_point:
        -   -116
        ori_min:
        -   -0.27846455574035645
        ori_max:
        -   5.8656744956970215
    /model.15/Concat_output_0:
        qtype: asymmetric_quantized
        qmethod: layer
        dtype: int8
        min:
        -   -0.27846455574035645
        max:
        -   5.8656744956970215
        scale:
        -   0.024094662946813245
        zero_point:
        -   -116
        ori_min:
        -   -0.27846455574035645
        ori_max:
        -   5.8656744956970215
    /model.15/cv2/conv/Conv_output_0:
        qtype: asymmetric_quantized
        qmethod: layer
        dtype: int8
        min:
        -   -7.937096118927002
        max:
        -   3.3626973628997803
        scale:
        -   0.04431291561500699
        zero_point:
        -   51
        ori_min:
        -   -7.937096118927002
        ori_max:
        -   3.3626973628997803
    /model.15/cv2/act/Mul_output_0:
        qtype: asymmetric_quantized
        qmethod: layer
        dtype: int8
        min:
        -   -0.27846455574035645
        max:
        -   3.250107765197754
        scale:
        -   0.013837538513482786
        zero_point:
        -   -108
        ori_min:
        -   -0.27846455574035645
        ori_max:
        -   3.250107765197754
    /model.16/conv/Conv_output_0:
        qtype: asymmetric_quantized
        qmethod: layer
        dtype: int8
        min:
        -   -6.004849433898926
        max:
        -   5.299306869506836
        scale:
        -   0.04433002471923828
        zero_point:
        -   7
        ori_min:
        -   -6.004849433898926
        ori_max:
        -   5.299306869506836
    /model.16/act/Mul_output_0:
        qtype: asymmetric_quantized
        qmethod: layer
        dtype: int8
        min:
        -   -0.27846455574035645
        max:
        -   5.27296781539917
        scale:
        -   0.021770323024076575
        zero_point:
        -   -115
        ori_min:
        -   -0.27846455574035645
        ori_max:
        -   5.27296781539917
    /model.17/Concat_output_0:
        qtype: asymmetric_quantized
        qmethod: layer
        dtype: int8
        min:
        -   -0.27846458554267883
        max:
        -   5.27296781539917
        scale:
        -   0.021770323140948428
        zero_point:
        -   -115
        ori_min:
        -   -0.27846458554267883
        ori_max:
        -   5.27296781539917
    /model.18/cv1/conv/Conv_output_0:
        qtype: asymmetric_quantized
        qmethod: layer
        dtype: int8
        min:
        -   -8.901579856872559
        max:
        -   4.67594575881958
        scale:
        -   0.053245198492910345
        zero_point:
        -   39
        ori_min:
        -   -8.901579856872559
        ori_max:
        -   4.67594575881958
    /model.18/cv1/act/Mul_output_0:
        qtype: asymmetric_quantized
        qmethod: layer
        dtype: int8
        min:
        -   -0.27846455574035645
        max:
        -   4.63278341293335
        scale:
        -   0.01925979595558316
        zero_point:
        -   -114
        ori_min:
        -   -0.27846455574035645
        ori_max:
        -   4.63278341293335
    /model.18/Split_output_0:
        qtype: asymmetric_quantized
        qmethod: layer
        dtype: int8
        min:
        -   -0.27846455574035645
        max:
        -   4.525309085845947
        scale:
        -   0.0188383280062208
        zero_point:
        -   -113
        ori_min:
        -   -0.27846455574035645
        ori_max:
        -   4.525309085845947
    /model.18/Split_output_1:
        qtype: asymmetric_quantized
        qmethod: layer
        dtype: int8
        min:
        -   -0.27846455574035645
        max:
        -   4.63278341293335
        scale:
        -   0.01925979595558316
        zero_point:
        -   -114
        ori_min:
        -   -0.27846455574035645
        ori_max:
        -   4.63278341293335
    /model.18/m.0/cv1/conv/Conv_output_0:
        qtype: asymmetric_quantized
        qmethod: layer
        dtype: int8
        min:
        -   -7.5312819480896
        max:
        -   3.5257320404052734
        scale:
        -   0.04336083917056813
        zero_point:
        -   46
        ori_min:
        -   -7.5312819480896
        ori_max:
        -   3.5257320404052734
    /model.18/m.0/cv1/act/Mul_output_0:
        qtype: asymmetric_quantized
        qmethod: layer
        dtype: int8
        min:
        -   -0.27846458554267883
        max:
        -   3.4249353408813477
        scale:
        -   0.01452313696636873
        zero_point:
        -   -109
        ori_min:
        -   -0.27846458554267883
        ori_max:
        -   3.4249353408813477
    /model.18/m.0/cv2/conv/Conv_output_0:
        qtype: asymmetric_quantized
        qmethod: layer
        dtype: int8
        min:
        -   -7.902619361877441
        max:
        -   6.876223087310791
        scale:
        -   0.05795624489877738
        zero_point:
        -   8
        ori_min:
        -   -7.902619361877441
        ori_max:
        -   6.876223087310791
    /model.18/m.0/cv2/act/Mul_output_0:
        qtype: asymmetric_quantized
        qmethod: layer
        dtype: int8
        min:
        -   -0.27846455574035645
        max:
        -   6.869134426116943
        scale:
        -   0.028029799928852156
        zero_point:
        -   -118
        ori_min:
        -   -0.27846455574035645
        ori_max:
        -   6.869134426116943
    /model.18/Concat_output_0:
        qtype: asymmetric_quantized
        qmethod: layer
        dtype: int8
        min:
        -   -0.27846455574035645
        max:
        -   6.869134426116943
        scale:
        -   0.028029799928852156
        zero_point:
        -   -118
        ori_min:
        -   -0.27846455574035645
        ori_max:
        -   6.869134426116943
    /model.18/cv2/conv/Conv_output_0:
        qtype: asymmetric_quantized
        qmethod: layer
        dtype: int8
        min:
        -   -8.391127586364746
        max:
        -   3.763812780380249
        scale:
        -   0.047666432810764686
        zero_point:
        -   48
        ori_min:
        -   -8.391127586364746
        ori_max:
        -   3.763812780380249
    /model.18/cv2/act/Mul_output_0:
        qtype: asymmetric_quantized
        qmethod: layer
        dtype: int8
        min:
        -   -0.27846455574035645
        max:
        -   3.6784896850585938
        scale:
        -   0.015517467610976275
        zero_point:
        -   -110
        ori_min:
        -   -0.27846455574035645
        ori_max:
        -   3.6784896850585938
    /model.19/conv/Conv_output_0:
        qtype: asymmetric_quantized
        qmethod: layer
        dtype: int8
        min:
        -   -8.386730194091797
        max:
        -   5.266721725463867
        scale:
        -   0.05354294870413986
        zero_point:
        -   29
        ori_min:
        -   -8.386730194091797
        ori_max:
        -   5.266721725463867
    /model.19/act/Mul_output_0:
        qtype: asymmetric_quantized
        qmethod: layer
        dtype: int8
        min:
        -   -0.27846455574035645
        max:
        -   5.239682674407959
        scale:
        -   0.02163979305940516
        zero_point:
        -   -115
        ori_min:
        -   -0.27846455574035645
        ori_max:
        -   5.239682674407959
    /model.20/Concat_output_0:
        qtype: asymmetric_quantized
        qmethod: layer
        dtype: int8
        min:
        -   -0.27846455574035645
        max:
        -   5.239682674407959
        scale:
        -   0.02163979305940516
        zero_point:
        -   -115
        ori_min:
        -   -0.27846455574035645
        ori_max:
        -   5.239682674407959
    /model.21/cv1/conv/Conv_output_0:
        qtype: asymmetric_quantized
        qmethod: layer
        dtype: int8
        min:
        -   -6.8070220947265625
        max:
        -   5.246499538421631
        scale:
        -   0.04726871228685566
        zero_point:
        -   16
        ori_min:
        -   -6.8070220947265625
        ori_max:
        -   5.246499538421631
    /model.21/cv1/act/Mul_output_0:
        qtype: asymmetric_quantized
        qmethod: layer
        dtype: int8
        min:
        -   -0.27846455574035645
        max:
        -   5.2190165519714355
        scale:
        -   0.021558749442007027
        zero_point:
        -   -115
        ori_min:
        -   -0.27846455574035645
        ori_max:
        -   5.2190165519714355
    /model.21/Split_output_0:
        qtype: asymmetric_quantized
        qmethod: layer
        dtype: int8
        min:
        -   -0.27846455574035645
        max:
        -   4.853909969329834
        scale:
        -   0.020126958921843883
        zero_point:
        -   -114
        ori_min:
        -   -0.27846455574035645
        ori_max:
        -   4.853909969329834
    /model.21/Split_output_1:
        qtype: asymmetric_quantized
        qmethod: layer
        dtype: int8
        min:
        -   -0.27846455574035645
        max:
        -   5.2190165519714355
        scale:
        -   0.021558749442007027
        zero_point:
        -   -115
        ori_min:
        -   -0.27846455574035645
        ori_max:
        -   5.2190165519714355
    /model.21/m.0/cv1/conv/Conv_output_0:
        qtype: asymmetric_quantized
        qmethod: layer
        dtype: int8
        min:
        -   -7.749972343444824
        max:
        -   5.261127471923828
        scale:
        -   0.05102392084458295
        zero_point:
        -   24
        ori_min:
        -   -7.749972343444824
        ori_max:
        -   5.261127471923828
    /model.21/m.0/cv1/act/Mul_output_0:
        qtype: asymmetric_quantized
        qmethod: layer
        dtype: int8
        min:
        -   -0.27846455574035645
        max:
        -   5.233965873718262
        scale:
        -   0.02161737423317105
        zero_point:
        -   -115
        ori_min:
        -   -0.27846455574035645
        ori_max:
        -   5.233965873718262
    /model.21/m.0/cv2/conv/Conv_output_0:
        qtype: asymmetric_quantized
        qmethod: layer
        dtype: int8
        min:
        -   -10.348062515258789
        max:
        -   10.386415481567383
        scale:
        -   0.08131167841892617
        zero_point:
        -   -1
        ori_min:
        -   -10.348062515258789
        ori_max:
        -   10.386415481567383
    /model.21/m.0/cv2/act/Mul_output_0:
        qtype: asymmetric_quantized
        qmethod: layer
        dtype: int8
        min:
        -   -0.27846455574035645
        max:
        -   10.38609504699707
        scale:
        -   0.041821802363676185
        zero_point:
        -   -121
        ori_min:
        -   -0.27846455574035645
        ori_max:
        -   10.38609504699707
    /model.21/Concat_output_0:
        qtype: asymmetric_quantized
        qmethod: layer
        dtype: int8
        min:
        -   -0.27846455574035645
        max:
        -   10.38609504699707
        scale:
        -   0.041821802363676185
        zero_point:
        -   -121
        ori_min:
        -   -0.27846455574035645
        ori_max:
        -   10.38609504699707
    /model.21/cv2/conv/Conv_output_0:
        qtype: asymmetric_quantized
        qmethod: layer
        dtype: int8
        min:
        -   -19.829164505004883
        max:
        -   7.318134307861328
        scale:
        -   0.10645999534457337
        zero_point:
        -   58
        ori_min:
        -   -19.829164505004883
        ori_max:
        -   7.318134307861328
    /model.21/cv2/act/Mul_output_0:
        qtype: asymmetric_quantized
        qmethod: layer
        dtype: int8
        min:
        -   -0.27846458554267883
        max:
        -   7.313282489776611
        scale:
        -   0.029771557158114862
        zero_point:
        -   -119
        ori_min:
        -   -0.27846458554267883
        ori_max:
        -   7.313282489776611
    /model.22/cv4.2/cv4.2.0/conv/Conv_output_0:
        qtype: asymmetric_quantized
        qmethod: layer
        dtype: int8
        min:
        -   -6.350587844848633
        max:
        -   5.14376974105835
        scale:
        -   0.04507591210159601
        zero_point:
        -   13
        ori_min:
        -   -6.350587844848633
        ori_max:
        -   5.14376974105835
    /model.22/cv4.2/cv4.2.0/act/Mul_output_0:
        qtype: asymmetric_quantized
        qmethod: layer
        dtype: int8
        min:
        -   -0.27846452593803406
        max:
        -   5.113926410675049
        scale:
        -   0.021146631123972873
        zero_point:
        -   -115
        ori_min:
        -   -0.27846452593803406
        ori_max:
        -   5.113926410675049
    /model.22/cv4.2/cv4.2.1/conv/Conv_output_0:
        qtype: asymmetric_quantized
        qmethod: layer
        dtype: int8
        min:
        -   -6.500673294067383
        max:
        -   6.326811790466309
        scale:
        -   0.050303863076602714
        zero_point:
        -   1
        ori_min:
        -   -6.500673294067383
        ori_max:
        -   6.326811790466309
    /model.22/cv4.2/cv4.2.1/act/Mul_output_0:
        qtype: asymmetric_quantized
        qmethod: layer
        dtype: int8
        min:
        -   -0.27846455574035645
        max:
        -   6.315521240234375
        scale:
        -   0.02585876782735189
        zero_point:
        -   -117
        ori_min:
        -   -0.27846455574035645
        ori_max:
        -   6.315521240234375
    /model.22/cv4.2/cv4.2.2/Conv_output_0:
        qtype: asymmetric_quantized
        qmethod: layer
        dtype: int8
        min:
        -   -2.652362108230591
        max:
        -   1.016600251197815
        scale:
        -   0.014388087684032963
        zero_point:
        -   56
        ori_min:
        -   -2.652362108230591
        ori_max:
        -   1.016600251197815
    /model.22/Reshape_2_output_0_shape4_/model.22/Concat:
        qtype: asymmetric_quantized
        qmethod: layer
        dtype: int8
        min:
        -   -2.652362108230591
        max:
        -   1.016600251197815
        scale:
        -   0.014388087684032963
        zero_point:
        -   56
        ori_min:
        -   -2.652362108230591
        ori_max:
        -   1.016600251197815
    /model.22/cv2.2/cv2.2.0/conv/Conv_output_0:
        qtype: asymmetric_quantized
        qmethod: layer
        dtype: int8
        min:
        -   -10.328115463256836
        max:
        -   7.78761100769043
        scale:
        -   0.07104206459195006
        zero_point:
        -   17
        ori_min:
        -   -10.328115463256836
        ori_max:
        -   7.78761100769043
    /model.22/cv2.2/cv2.2.0/act/Mul_output_0:
        qtype: asymmetric_quantized
        qmethod: layer
        dtype: int8
        min:
        -   -0.27846452593803406
        max:
        -   7.784381866455078
        scale:
        -   0.03161900546036515
        zero_point:
        -   -119
        ori_min:
        -   -0.27846452593803406
        ori_max:
        -   7.784381866455078
    /model.22/cv2.2/cv2.2.1/conv/Conv_output_0:
        qtype: asymmetric_quantized
        qmethod: layer
        dtype: int8
        min:
        -   -19.408061981201172
        max:
        -   41.69974899291992
        scale:
        -   0.239638474408318
        zero_point:
        -   -47
        ori_min:
        -   -19.408061981201172
        ori_max:
        -   41.69974899291992
    /model.22/cv2.2/cv2.2.1/act/Mul_output_0:
        qtype: asymmetric_quantized
        qmethod: layer
        dtype: int8
        min:
        -   -0.27846455574035645
        max:
        -   41.69974899291992
        scale:
        -   0.16462044528886383
        zero_point:
        -   -126
        ori_min:
        -   -0.27846455574035645
        ori_max:
        -   41.69974899291992
    /model.22/cv2.2/cv2.2.2/Conv_output_0:
        qtype: asymmetric_quantized
        qmethod: layer
        dtype: int8
        min:
        -   -4.631251335144043
        max:
        -   11.34886360168457
        scale:
        -   0.0626671173993279
        zero_point:
        -   -54
        ori_min:
        -   -4.631251335144043
        ori_max:
        -   11.34886360168457
    /model.22/cv3.2/cv3.2.0/conv/Conv_output_0:
        qtype: asymmetric_quantized
        qmethod: layer
        dtype: int8
        min:
        -   -19.59127426147461
        max:
        -   9.210122108459473
        scale:
        -   0.11294665243111404
        zero_point:
        -   45
        ori_min:
        -   -19.59127426147461
        ori_max:
        -   9.210122108459473
    /model.22/cv3.2/cv3.2.0/act/Mul_output_0:
        qtype: asymmetric_quantized
        qmethod: layer
        dtype: int8
        min:
        -   -0.27846455574035645
        max:
        -   9.209200859069824
        scale:
        -   0.0372065310384713
        zero_point:
        -   -121
        ori_min:
        -   -0.27846455574035645
        ori_max:
        -   9.209200859069824
    /model.22/cv3.2/cv3.2.1/conv/Conv_output_0:
        qtype: asymmetric_quantized
        qmethod: layer
        dtype: int8
        min:
        -   -53.19233322143555
        max:
        -   45.44985580444336
        scale:
        -   0.3868321138269761
        zero_point:
        -   10
        ori_min:
        -   -53.19233322143555
        ori_max:
        -   45.44985580444336
    /model.22/cv3.2/cv3.2.1/act/Mul_output_0:
        qtype: asymmetric_quantized
        qmethod: layer
        dtype: int8
        min:
        -   -0.27846452593803406
        max:
        -   45.44985580444336
        scale:
        -   0.17932674639365254
        zero_point:
        -   -126
        ori_min:
        -   -0.27846452593803406
        ori_max:
        -   45.44985580444336
    /model.22/cv3.2/cv3.2.2/Conv_output_0:
        qtype: asymmetric_quantized
        qmethod: layer
        dtype: int8
        min:
        -   -7.0
        max:
        -   1.8636651039123535
        scale:
        -   0.03475947099573472
        zero_point:
        -   73
        ori_min:
        -   -29.65245246887207
        ori_max:
        -   1.8636651039123535
    /model.22/Concat_3_output_0:
        qtype: asymmetric_quantized
        qmethod: layer
        dtype: int8
        min:
        -   -7.0
        max:
        -   11.34886360168457
        scale:
        -   0.07195632784974342
        zero_point:
        -   -31
        ori_min:
        -   -29.65245246887207
        ori_max:
        -   11.34886360168457
    /model.22/Reshape_5_output_0_shape4_/model.22/Concat_4:
        qtype: asymmetric_quantized
        qmethod: layer
        dtype: int8
        min:
        -   -7.0
        max:
        -   11.34886360168457
        scale:
        -   0.07195632784974342
        zero_point:
        -   -31
        ori_min:
        -   -29.65245246887207
        ori_max:
        -   11.34886360168457
    /model.22/cv4.1/cv4.1.0/conv/Conv_output_0:
        qtype: asymmetric_quantized
        qmethod: layer
        dtype: int8
        min:
        -   -5.32651424407959
        max:
        -   2.911616802215576
        scale:
        -   0.032306396259981045
        zero_point:
        -   37
        ori_min:
        -   -5.32651424407959
        ori_max:
        -   2.911616802215576
    /model.22/cv4.1/cv4.1.0/act/Mul_output_0:
        qtype: asymmetric_quantized
        qmethod: layer
        dtype: int8
        min:
        -   -0.27846452593803406
        max:
        -   2.7614290714263916
        scale:
        -   0.011921151362213434
        zero_point:
        -   -105
        ori_min:
        -   -0.27846452593803406
        ori_max:
        -   2.7614290714263916
    /model.22/cv4.1/cv4.1.1/conv/Conv_output_0:
        qtype: asymmetric_quantized
        qmethod: layer
        dtype: int8
        min:
        -   -5.092621803283691
        max:
        -   5.844459056854248
        scale:
        -   0.04289051317701153
        zero_point:
        -   -9
        ori_min:
        -   -5.092621803283691
        ori_max:
        -   5.844459056854248
    /model.22/cv4.1/cv4.1.1/act/Mul_output_0:
        qtype: asymmetric_quantized
        qmethod: layer
        dtype: int8
        min:
        -   -0.27846455574035645
        max:
        -   5.827582359313965
        scale:
        -   0.02394528201982087
        zero_point:
        -   -116
        ori_min:
        -   -0.27846455574035645
        ori_max:
        -   5.827582359313965
    /model.22/cv4.1/cv4.1.2/Conv_output_0:
        qtype: asymmetric_quantized
        qmethod: layer
        dtype: int8
        min:
        -   -2.87005352973938
        max:
        -   1.3020014762878418
        scale:
        -   0.016361000023636163
        zero_point:
        -   47
        ori_min:
        -   -2.87005352973938
        ori_max:
        -   1.3020014762878418
    /model.22/Reshape_1_output_0_shape4_/model.22/Concat:
        qtype: asymmetric_quantized
        qmethod: layer
        dtype: int8
        min:
        -   -2.87005352973938
        max:
        -   1.3020014762878418
        scale:
        -   0.016361000023636163
        zero_point:
        -   47
        ori_min:
        -   -2.87005352973938
        ori_max:
        -   1.3020014762878418
    /model.22/cv2.1/cv2.1.0/conv/Conv_output_0:
        qtype: asymmetric_quantized
        qmethod: layer
        dtype: int8
        min:
        -   -10.660117149353027
        max:
        -   6.846254348754883
        scale:
        -   0.068652437247482
        zero_point:
        -   27
        ori_min:
        -   -10.660117149353027
        ori_max:
        -   6.846254348754883
    /model.22/cv2.1/cv2.1.0/act/Mul_output_0:
        qtype: asymmetric_quantized
        qmethod: layer
        dtype: int8
        min:
        -   -0.27846455574035645
        max:
        -   6.8389811515808105
        scale:
        -   0.027911551793416343
        zero_point:
        -   -118
        ori_min:
        -   -0.27846455574035645
        ori_max:
        -   6.8389811515808105
    /model.22/cv2.1/cv2.1.1/conv/Conv_output_0:
        qtype: asymmetric_quantized
        qmethod: layer
        dtype: int8
        min:
        -   -13.508536338806152
        max:
        -   54.42076873779297
        scale:
        -   0.2663894316729377
        zero_point:
        -   -77
        ori_min:
        -   -13.508536338806152
        ori_max:
        -   54.42076873779297
    /model.22/cv2.1/cv2.1.1/act/Mul_output_0:
        qtype: asymmetric_quantized
        qmethod: layer
        dtype: int8
        min:
        -   -0.27846455574035645
        max:
        -   54.42076873779297
        scale:
        -   0.21450679722954244
        zero_point:
        -   -127
        ori_min:
        -   -0.27846455574035645
        ori_max:
        -   54.42076873779297
    /model.22/cv2.1/cv2.1.2/Conv_output_0:
        qtype: asymmetric_quantized
        qmethod: layer
        dtype: int8
        min:
        -   -5.684680938720703
        max:
        -   12.600702285766602
        scale:
        -   0.07170738519406786
        zero_point:
        -   -49
        ori_min:
        -   -5.684680938720703
        ori_max:
        -   12.600702285766602
    /model.22/cv3.1/cv3.1.0/conv/Conv_output_0:
        qtype: asymmetric_quantized
        qmethod: layer
        dtype: int8
        min:
        -   -9.217781066894531
        max:
        -   6.65983772277832
        scale:
        -   0.06226517172420726
        zero_point:
        -   20
        ori_min:
        -   -9.217781066894531
        ori_max:
        -   6.65983772277832
    /model.22/cv3.1/cv3.1.0/act/Mul_output_0:
        qtype: asymmetric_quantized
        qmethod: layer
        dtype: int8
        min:
        -   -0.27846455574035645
        max:
        -   6.651315212249756
        scale:
        -   0.027175606933294558
        zero_point:
        -   -118
        ori_min:
        -   -0.27846455574035645
        ori_max:
        -   6.651315212249756
    /model.22/cv3.1/cv3.1.1/conv/Conv_output_0:
        qtype: asymmetric_quantized
        qmethod: layer
        dtype: int8
        min:
        -   -52.75863265991211
        max:
        -   38.537349700927734
        scale:
        -   0.3580234602385876
        zero_point:
        -   19
        ori_min:
        -   -52.75863265991211
        ori_max:
        -   38.537349700927734
    /model.22/cv3.1/cv3.1.1/act/Mul_output_0:
        qtype: asymmetric_quantized
        qmethod: layer
        dtype: int8
        min:
        -   -0.27846455574035645
        max:
        -   38.537349700927734
        scale:
        -   0.1522188794379141
        zero_point:
        -   -126
        ori_min:
        -   -0.27846455574035645
        ori_max:
        -   38.537349700927734
    /model.22/cv3.1/cv3.1.2/Conv_output_0:
        qtype: asymmetric_quantized
        qmethod: layer
        dtype: int8
        min:
        -   -7.0
        max:
        -   0.2561030387878418
        scale:
        -   0.028455306034462124
        zero_point:
        -   118
        ori_min:
        -   -25.568878173828125
        ori_max:
        -   0.2561030387878418
    /model.22/Concat_2_output_0:
        qtype: asymmetric_quantized
        qmethod: layer
        dtype: int8
        min:
        -   -7.0
        max:
        -   12.600702285766602
        scale:
        -   0.07686549915986902
        zero_point:
        -   -37
        ori_min:
        -   -25.568878173828125
        ori_max:
        -   12.600702285766602
    /model.22/Reshape_4_output_0_shape4_/model.22/Concat_4:
        qtype: asymmetric_quantized
        qmethod: layer
        dtype: int8
        min:
        -   -7.0
        max:
        -   12.600702285766602
        scale:
        -   0.07686549915986902
        zero_point:
        -   -37
        ori_min:
        -   -25.568878173828125
        ori_max:
        -   12.600702285766602
    /model.22/proto/cv1/conv/Conv_output_0:
        qtype: asymmetric_quantized
        qmethod: layer
        dtype: int8
        min:
        -   -5.038382530212402
        max:
        -   3.7844505310058594
        scale:
        -   0.03459934533811083
        zero_point:
        -   18
        ori_min:
        -   -5.038382530212402
        ori_max:
        -   3.7844505310058594
    /model.22/proto/cv1/act/Mul_output_0:
        qtype: asymmetric_quantized
        qmethod: layer
        dtype: int8
        min:
        -   -0.27846455574035645
        max:
        -   3.7003731727600098
        scale:
        -   0.015603285209805357
        zero_point:
        -   -110
        ori_min:
        -   -0.27846455574035645
        ori_max:
        -   3.7003731727600098
    /model.22/proto/upsample/ConvTranspose_output_0:
        qtype: asymmetric_quantized
        qmethod: layer
        dtype: int8
        min:
        -   -0.35807645320892334
        max:
        -   0.3688446879386902
        scale:
        -   0.002850671141755347
        zero_point:
        -   -2
        ori_min:
        -   -0.35807645320892334
        ori_max:
        -   0.3688446879386902
    /model.22/proto/cv2/conv/Conv_output_0:
        qtype: asymmetric_quantized
        qmethod: layer
        dtype: int8
        min:
        -   -5.614611625671387
        max:
        -   1.7935681343078613
        scale:
        -   0.029051685333251955
        zero_point:
        -   65
        ori_min:
        -   -5.614611625671387
        ori_max:
        -   1.7935681343078613
    /model.22/proto/cv2/act/Mul_output_0:
        qtype: asymmetric_quantized
        qmethod: layer
        dtype: int8
        min:
        -   -0.27846458554267883
        max:
        -   1.5377410650253296
        scale:
        -   0.0071223751002667
        zero_point:
        -   -89
        ori_min:
        -   -0.27846458554267883
        ori_max:
        -   1.5377410650253296
    /model.22/proto/cv3/conv/Conv_output_0:
        qtype: asymmetric_quantized
        qmethod: layer
        dtype: int8
        min:
        -   -5.178586006164551
        max:
        -   6.143560409545898
        scale:
        -   0.04440057417925666
        zero_point:
        -   -11
        ori_min:
        -   -5.178586006164551
        ori_max:
        -   6.143560409545898
    output1:
        qtype: asymmetric_quantized
        qmethod: layer
        dtype: float32
        min:
        -   -0.27846455574035645
        max:
        -   6.130396366119385
        scale: []
        zero_point: []
        ori_min:
        -   -0.27846455574035645
        ori_max:
        -   6.130396366119385
    /model.22/cv4.0/cv4.0.0/conv/Conv_output_0:
        qtype: asymmetric_quantized
        qmethod: layer
        dtype: int8
        min:
        -   -5.762351989746094
        max:
        -   3.68583345413208
        scale:
        -   0.03705170762305166
        zero_point:
        -   28
        ori_min:
        -   -5.762351989746094
        ori_max:
        -   3.68583345413208
    /model.22/cv4.0/cv4.0.0/act/Mul_output_0:
        qtype: asymmetric_quantized
        qmethod: layer
        dtype: int8
        min:
        -   -0.27846455574035645
        max:
        -   3.595667600631714
        scale:
        -   0.015192675123027726
        zero_point:
        -   -110
        ori_min:
        -   -0.27846455574035645
        ori_max:
        -   3.595667600631714
    /model.22/cv4.0/cv4.0.1/conv/Conv_output_0:
        qtype: asymmetric_quantized
        qmethod: layer
        dtype: int8
        min:
        -   -6.583020210266113
        max:
        -   5.5519914627075195
        scale:
        -   0.047588281070484836
        zero_point:
        -   10
        ori_min:
        -   -6.583020210266113
        ori_max:
        -   5.5519914627075195
    /model.22/cv4.0/cv4.0.1/act/Mul_output_0:
        qtype: asymmetric_quantized
        qmethod: layer
        dtype: int8
        min:
        -   -0.27846455574035645
        max:
        -   5.530534744262695
        scale:
        -   0.022780389411776673
        zero_point:
        -   -116
        ori_min:
        -   -0.27846455574035645
        ori_max:
        -   5.530534744262695
    /model.22/cv4.0/cv4.0.2/Conv_output_0:
        qtype: asymmetric_quantized
        qmethod: layer
        dtype: int8
        min:
        -   -2.6287190914154053
        max:
        -   1.7631995677947998
        scale:
        -   0.017223210428275314
        zero_point:
        -   25
        ori_min:
        -   -2.6287190914154053
        ori_max:
        -   1.7631995677947998
    /model.22/Reshape_output_0_shape4_/model.22/Concat:
        qtype: asymmetric_quantized
        qmethod: layer
        dtype: int8
        min:
        -   -2.6287190914154053
        max:
        -   1.7631995677947998
        scale:
        -   0.017223210428275314
        zero_point:
        -   25
        ori_min:
        -   -2.6287190914154053
        ori_max:
        -   1.7631995677947998
    /model.22/Concat_output_0:
        qtype: asymmetric_quantized
        qmethod: layer
        dtype: int8
        min:
        -   -2.87005352973938
        max:
        -   1.7631995677947998
        scale:
        -   0.018169619990330118
        zero_point:
        -   30
        ori_min:
        -   -2.87005352973938
        ori_max:
        -   1.7631995677947998
    /model.22/cv2.0/cv2.0.0/conv/Conv_output_0:
        qtype: asymmetric_quantized
        qmethod: layer
        dtype: int8
        min:
        -   -7.168604850769043
        max:
        -   3.6872661113739014
        scale:
        -   0.04257204298879586
        zero_point:
        -   40
        ori_min:
        -   -7.168604850769043
        ori_max:
        -   3.6872661113739014
    /model.22/cv2.0/cv2.0.0/act/Mul_output_0:
        qtype: asymmetric_quantized
        qmethod: layer
        dtype: int8
        min:
        -   -0.27846455574035645
        max:
        -   3.597191095352173
        scale:
        -   0.015198649612127565
        zero_point:
        -   -110
        ori_min:
        -   -0.27846455574035645
        ori_max:
        -   3.597191095352173
    /model.22/cv2.0/cv2.0.1/conv/Conv_output_0:
        qtype: asymmetric_quantized
        qmethod: layer
        dtype: int8
        min:
        -   -22.283723831176758
        max:
        -   38.11016082763672
        scale:
        -   0.236838763367896
        zero_point:
        -   -34
        ori_min:
        -   -22.283723831176758
        ori_max:
        -   38.11016082763672
    /model.22/cv2.0/cv2.0.1/act/Mul_output_0:
        qtype: asymmetric_quantized
        qmethod: layer
        dtype: int8
        min:
        -   -0.27846455574035645
        max:
        -   38.11016082763672
        scale:
        -   0.1505436289544199
        zero_point:
        -   -126
        ori_min:
        -   -0.27846455574035645
        ori_max:
        -   38.11016082763672
    /model.22/cv2.0/cv2.0.2/Conv_output_0:
        qtype: asymmetric_quantized
        qmethod: layer
        dtype: int8
        min:
        -   -5.5584869384765625
        max:
        -   16.987777709960938
        scale:
        -   0.0884167241115196
        zero_point:
        -   -65
        ori_min:
        -   -5.5584869384765625
        ori_max:
        -   16.987777709960938
    /model.22/cv3.0/cv3.0.0/conv/Conv_output_0:
        qtype: asymmetric_quantized
        qmethod: layer
        dtype: int8
        min:
        -   -7.458004474639893
        max:
        -   4.640881061553955
        scale:
        -   0.047446609945858226
        zero_point:
        -   29
        ori_min:
        -   -7.458004474639893
        ori_max:
        -   4.640881061553955
    /model.22/cv3.0/cv3.0.0/act/Mul_output_0:
        qtype: asymmetric_quantized
        qmethod: layer
        dtype: int8
        min:
        -   -0.27846455574035645
        max:
        -   4.59652853012085
        scale:
        -   0.01911761994455375
        zero_point:
        -   -113
        ori_min:
        -   -0.27846455574035645
        ori_max:
        -   4.59652853012085
    /model.22/cv3.0/cv3.0.1/conv/Conv_output_0:
        qtype: asymmetric_quantized
        qmethod: layer
        dtype: int8
        min:
        -   -49.448543548583984
        max:
        -   25.422405242919922
        scale:
        -   0.2936115638882506
        zero_point:
        -   40
        ori_min:
        -   -49.448543548583984
        ori_max:
        -   25.422405242919922
    /model.22/cv3.0/cv3.0.1/act/Mul_output_0:
        qtype: asymmetric_quantized
        qmethod: layer
        dtype: int8
        min:
        -   -0.27846455574035645
        max:
        -   25.422405242919922
        scale:
        -   0.10078772470062854
        zero_point:
        -   -125
        ori_min:
        -   -0.27846455574035645
        ori_max:
        -   25.422405242919922
    /model.22/cv3.0/cv3.0.2/Conv_output_0:
        qtype: asymmetric_quantized
        qmethod: layer
        dtype: int8
        min:
        -   -7.0
        max:
        -   0.0
        scale:
        -   0.027450980392156862
        zero_point:
        -   127
        ori_min:
        -   -22.129364013671875
        ori_max:
        -   -1.5390892028808594
    /model.22/Concat_1_output_0:
        qtype: asymmetric_quantized
        qmethod: layer
        dtype: int8
        min:
        -   -7.0
        max:
        -   16.987777709960938
        scale:
        -   0.09406971650965074
        zero_point:
        -   -54
        ori_min:
        -   -22.129364013671875
        ori_max:
        -   16.987777709960938
    /model.22/Reshape_3_output_0_shape4_/model.22/Concat_4:
        qtype: asymmetric_quantized
        qmethod: layer
        dtype: int8
        min:
        -   -7.0
        max:
        -   16.987777709960938
        scale:
        -   0.09406971650965074
        zero_point:
        -   -54
        ori_min:
        -   -22.129364013671875
        ori_max:
        -   16.987777709960938
    /model.22/Concat_4_output_0:
        qtype: asymmetric_quantized
        qmethod: layer
        dtype: int8
        min:
        -   -7.0
        max:
        -   16.987777709960938
        scale:
        -   0.09406971650965074
        zero_point:
        -   -54
        ori_min:
        -   -29.65245246887207
        ori_max:
        -   16.987777709960938
    /model.22/Split_output_0_shape4:
        qtype: asymmetric_quantized
        qmethod: layer
        dtype: int8
        min:
        -   -5.684680938720703
        max:
        -   16.987777709960938
        scale:
        -   0.08891160254384957
        zero_point:
        -   -64
        ori_min:
        -   -5.684680938720703
        ori_max:
        -   16.987777709960938
    /model.22/Split_output_1:
        qtype: asymmetric_quantized
        qmethod: layer
        dtype: int8
        min:
        -   -7.0
        max:
        -   1.8636651039123535
        scale:
        -   0.03475947099573472
        zero_point:
        -   73
        ori_min:
        -   -29.65245246887207
        ori_max:
        -   1.8636651039123535
    /model.22/dfl/Reshape_output_0:
        qtype: asymmetric_quantized
        qmethod: layer
        dtype: int8
        min:
        -   -5.684680938720703
        max:
        -   16.987777709960938
        scale:
        -   0.08891160254384957
        zero_point:
        -   -64
        ori_min:
        -   -5.684680938720703
        ori_max:
        -   16.987777709960938
    /model.22/dfl/Softmax_pre_tp:
        qtype: asymmetric_quantized
        qmethod: layer
        dtype: int8
        min:
        -   -5.684680938720703
        max:
        -   16.987777709960938
        scale:
        -   0.08891160254384957
        zero_point:
        -   -64
        ori_min:
        -   -5.684680938720703
        ori_max:
        -   16.987777709960938
    /model.22/dfl/Softmax_new:
        qtype: asymmetric_quantized
        qmethod: layer
        dtype: int8
        min:
        -   0.0
        max:
        -   0.9354337453842163
        scale:
        -   0.003668367628957711
        zero_point:
        -   -128
        ori_min:
        -   8.809466489623219e-10
        ori_max:
        -   0.9354337453842163
    /model.22/dfl/conv/Conv_output_0:
        qtype: asymmetric_quantized
        qmethod: layer
        dtype: int8
        min:
        -   0.0
        max:
        -   14.141586303710938
        scale:
        -   0.055457201191023285
        zero_point:
        -   -128
        ori_min:
        -   0.11177486181259155
        ori_max:
        -   14.141586303710938
    /model.22/dfl/Reshape_1_output_0_shape4_/model.22/Slice_2split:
        qtype: asymmetric_quantized
        qmethod: layer
        dtype: int8
        min:
        -   0.0
        max:
        -   14.141586303710938
        scale:
        -   0.055457201191023285
        zero_point:
        -   -128
        ori_min:
        -   0.11177486181259155
        ori_max:
        -   14.141586303710938
    /model.22/dfl/Reshape_1_output_0_shape4_/model.22/Slice_2split_conv_/model.22/Slice_2split:
        qtype: asymmetric_quantized
        qmethod: layer
        dtype: int8
        min:
        -   0.0
        max:
        -   14.141586303710938
        scale:
        -   0.055457201191023285
        zero_point:
        -   -128
        ori_min:
        -   0.0
        ori_max:
        -   14.141586303710938
    /model.22/Slice_output_0_shape4_before_conv:
        qtype: asymmetric_quantized
        qmethod: layer
        dtype: int8
        min:
        -   0.0
        max:
        -   14.141586303710938
        scale:
        -   0.055457201191023285
        zero_point:
        -   -128
        ori_min:
        -   0.0
        ori_max:
        -   14.141586303710938
    /model.22/Slice_1_output_0:
        qtype: asymmetric_quantized
        qmethod: layer
        dtype: int8
        min:
        -   0.0
        max:
        -   13.312895774841309
        scale:
        -   0.05220743441114239
        zero_point:
        -   -128
        ori_min:
        -   0.11177486181259155
        ori_max:
        -   13.312895774841309
    /model.22/Slice_output_0:
        qtype: asymmetric_quantized
        qmethod: layer
        dtype: int8
        min:
        -   0.0
        max:
        -   14.141586303710938
        scale:
        -   0.055457201191023285
        zero_point:
        -   -128
        ori_min:
        -   0.1234673410654068
        ori_max:
        -   14.141586303710938
    /model.22/Sub_output_0:
        qtype: asymmetric_quantized
        qmethod: layer
        dtype: int8
        min:
        -   -1.8441343307495117
        max:
        -   79.17865753173828
        scale:
        -   0.3177364386764227
        zero_point:
        -   -122
        ori_min:
        -   -1.8441343307495117
        ori_max:
        -   79.17865753173828
    /model.22/Add_1_output_0:
        qtype: asymmetric_quantized
        qmethod: layer
        dtype: int8
        min:
        -   0.0
        max:
        -   82.32707977294922
        scale:
        -   0.3228512932272518
        zero_point:
        -   -128
        ori_min:
        -   0.6501545310020447
        ori_max:
        -   82.32707977294922
    /model.22/Sub_1_output_0:
        qtype: asymmetric_quantized
        qmethod: layer
        dtype: int8
        min:
        -   0.0
        max:
        -   27.08590316772461
        scale:
        -   0.10621922810872396
        zero_point:
        -   -128
        ori_min:
        -   0.6394407749176025
        ori_max:
        -   27.08590316772461
    /model.22/Concat_5_swap_concat_reshape_i1_out:
        qtype: asymmetric_quantized
        qmethod: layer
        dtype: int8
        min:
        -   0.0
        max:
        -   27.08590316772461
        scale:
        -   0.10621922810872396
        zero_point:
        -   -128
        ori_min:
        -   0.6394407749176025
        ori_max:
        -   27.08590316772461
    /model.22/Add_2_output_0:
        qtype: asymmetric_quantized
        qmethod: layer
        dtype: int8
        min:
        -   0.0
        max:
        -   159.15965270996094
        scale:
        -   0.6241555008233762
        zero_point:
        -   -128
        ori_min:
        -   0.6608682870864868
        ori_max:
        -   159.15965270996094
    /model.22/Div_1_output_0:
        qtype: asymmetric_quantized
        qmethod: layer
        dtype: int8
        min:
        -   0.0
        max:
        -   79.57982635498047
        scale:
        -   0.3120777504116881
        zero_point:
        -   -128
        ori_min:
        -   0.3304341435432434
        ori_max:
        -   79.57982635498047
    /model.22/Concat_5_swap_concat_reshape_i0_out:
        qtype: asymmetric_quantized
        qmethod: layer
        dtype: int8
        min:
        -   0.0
        max:
        -   79.57982635498047
        scale:
        -   0.3120777504116881
        zero_point:
        -   -128
        ori_min:
        -   0.3304341435432434
        ori_max:
        -   79.57982635498047
    /model.22/Concat_5_output_0_shape4:
        qtype: asymmetric_quantized
        qmethod: layer
        dtype: int8
        min:
        -   0.0
        max:
        -   79.57982635498047
        scale:
        -   0.3120777504116881
        zero_point:
        -   -128
        ori_min:
        -   0.3304341435432434
        ori_max:
        -   79.57982635498047
    /model.22/Mul_2_output_0_before:
        qtype: asymmetric_quantized
        qmethod: layer
        dtype: int8
        min:
        -   0.0
        max:
        -   636.6386108398438
        scale:
        -   2.496622003293505
        zero_point:
        -   -128
        ori_min:
        -   2.6434731483459473
        ori_max:
        -   636.6386108398438
    /model.22/Mul_2_output_0:
        qtype: asymmetric_quantized
        qmethod: layer
        dtype: int8
        min:
        -   0.0
        max:
        -   636.6386108398438
        scale:
        -   2.496622003293505
        zero_point:
        -   -128
        ori_min:
        -   2.6434731483459473
        ori_max:
        -   636.6386108398438
    /model.22/Mul_2_output_0_conv_/model.22/Concat_6:
        qtype: asymmetric_quantized
        qmethod: layer
        dtype: int8
        min:
        -   0.0
        max:
        -   636.6386108398438
        scale:
        -   2.496622003293505
        zero_point:
        -   -128
        ori_min:
        -   0.0
        ori_max:
        -   636.6386108398438
    /model.22/Sigmoid_output_0:
        qtype: asymmetric_quantized
        qmethod: layer
        dtype: int8
        min:
        -   0.0
        max:
        -   0.8657236099243164
        scale:
        -   0.0033949945487228095
        zero_point:
        -   -128
        ori_min:
        -   0.0
        ori_max:
        -   0.8657236099243164
    output0_shape4_before_reshape_before_conv:
        qtype: asymmetric_quantized
        qmethod: layer
        dtype: int8
        min:
        -   -2.87005352973938
        max:
        -   636.6386108398438
        scale:
        -   2.507877115174836
        zero_point:
        -   -127
        ori_min:
        -   -2.87005352973938
        ori_max:
        -   636.6386108398438
    output0_shape4_before_reshape:
        qtype: asymmetric_quantized
        qmethod: layer
        dtype: int8
        min:
        -   -2.87005352973938
        max:
        -   636.6386108398438
        scale:
        -   2.507877115174836
        zero_point:
        -   -127
        ori_min:
        -   -2.87005352973938
        ori_max:
        -   636.6386108398438
    output0:
        qtype: asymmetric_quantized
        qmethod: layer
        dtype: float32
        min:
        -   -2.87005352973938
        max:
        -   636.6386108398438
        scale: []
        zero_point: []
        ori_min:
        -   -2.87005352973938
        ori_max:
        -   636.6386108398438
    /model.22/Constant_12_output_0:
        qtype: symmetric_quantized
        qmethod: layer
        dtype: int32
        min:
        -   -79.5
        max:
        -   79.5
        scale:
        -   3.702007234096527e-08
        zero_point:
        -   0
        ori_min:
        -   0.5
        ori_max:
        -   79.5
    /model.22/Constant_13_output_0:
        qtype: symmetric_quantized
        qmethod: layer
        dtype: int32
        min:
        -   -79.5
        max:
        -   79.5
        scale:
        -   3.702007234096527e-08
        zero_point:
        -   0
        ori_min:
        -   0.5
        ori_max:
        -   79.5
    /model.22/Constant_15_output_0:
        qtype: asymmetric_quantized
        qmethod: layer
        dtype: int16
        min:
        -   0.0
        max:
        -   32.0
        scale:
        -   0.0004882887006942855
        zero_point:
        -   -32768
        ori_min:
        -   8.0
        ori_max:
        -   32.0
    images_int8:
        qtype: asymmetric_quantized
        qmethod: layer
        dtype: int8
        min:
        -   0.0
        max:
        -   1.0
        scale:
        -   0.00392156862745098
        zero_point:
        -   -128
        ori_min:
        -   0.0
        ori_max:
        -   1.0
    output0_int8:
        qtype: asymmetric_quantized
        qmethod: layer
        dtype: int8
        min:
        -   -2.87005352973938
        max:
        -   636.6386108398438
        scale:
        -   2.507877115174836
        zero_point:
        -   -127
        ori_min:
        -   -2.87005352973938
        ori_max:
        -   636.6386108398438
    output1_int8:
        qtype: asymmetric_quantized
        qmethod: layer
        dtype: int8
        min:
        -   -0.27846455574035645
        max:
        -   6.130396366119385
        scale:
        -   0.02513278792886173
        zero_point:
        -   -117
        ori_min:
        -   -0.27846455574035645
        ori_max:
        -   6.130396366119385
